{
    "vocab": {
        "\u0010": 0,
        "!": 1,
        "\"": 2,
        "#": 3,
        "$": 4,
        "%": 5,
        "&": 6,
        "'": 7,
        "(": 8,
        ")": 9,
        "*": 10,
        "+": 11,
        ",": 12,
        "-": 13,
        ".": 14,
        "/": 15,
        "0": 16,
        "1": 17,
        "2": 18,
        "3": 19,
        "4": 20,
        "5": 21,
        "6": 22,
        "7": 23,
        "8": 24,
        "9": 25,
        ":": 26,
        ";": 27,
        "<": 28,
        "=": 29,
        ">": 30,
        "?": 31,
        "@": 32,
        "[": 33,
        "\\": 34,
        "]": 35,
        "^": 36,
        "_": 37,
        "`": 38,
        "a": 39,
        "b": 40,
        "c": 41,
        "d": 42,
        "e": 43,
        "f": 44,
        "g": 45,
        "h": 46,
        "i": 47,
        "j": 48,
        "k": 49,
        "l": 50,
        "m": 51,
        "n": 52,
        "o": 53,
        "p": 54,
        "q": 55,
        "r": 56,
        "s": 57,
        "t": 58,
        "u": 59,
        "v": 60,
        "w": 61,
        "x": 62,
        "y": 63,
        "z": 64,
        "{": 65,
        "|": 66,
        "}": 67,
        "~": 68,
        "": 69,
        "": 70,
        "": 71,
        "": 72,
        "": 73,
        "": 74,
        "¡": 75,
        "£": 76,
        "´": 77,
        "·": 78,
        "½": 79,
        "¾": 80,
        "ß": 81,
        "à": 82,
        "á": 83,
        "â": 84,
        "ã": 85,
        "ä": 86,
        "å": 87,
        "æ": 88,
        "ç": 89,
        "è": 90,
        "é": 91,
        "ê": 92,
        "ë": 93,
        "í": 94,
        "ï": 95,
        "ð": 96,
        "ñ": 97,
        "ó": 98,
        "ô": 99,
        "ö": 100,
        "ø": 101,
        "ù": 102,
        "ú": 103,
        "û": 104,
        "ü": 105,
        "–": 106,
        "‘": 107,
        "’": 108,
        "“": 109,
        "”": 110,
        "₤": 111,
        "": 112,
        "th": 113,
        "in": 114,
        "the": 115,
        "an": 116,
        "er": 117,
        "is": 118,
        "re": 119,
        "to": 120,
        "on": 121,
        "en": 122,
        "at": 123,
        "es": 124,
        "as": 125,
        "ing": 126,
        "ou": 127,
        "al": 128,
        "it": 129,
        "or": 130,
        "and": 131,
        "ed": 132,
        "ar": 133,
        "of": 134,
        "ly": 135,
        "br": 136,
        "ch": 137,
        "il": 138,
        "om": 139,
        "st": 140,
        "le": 141,
        "ac": 142,
        "<br": 143,
        "<br/": 144,
        "<br/>": 145,
        "se": 146,
        "wh": 147,
        "mo": 148,
        "be": 149,
        "ic": 150,
        "ad": 151,
        "this": 152,
        "vi": 153,
        "ow": 154,
        "that": 155,
        "ot": 156,
        "ve": 157,
        "ver": 158,
        "ut": 159,
        "li": 160,
        "am": 161,
        "ter": 162,
        "sh": 163,
        "for": 164,
        "ab": 165,
        "id": 166,
        "was": 167,
        "im": 168,
        "gh": 169,
        "movi": 170,
        "'s": 171,
        "ay": 172,
        "ent": 173,
        "ion": 174,
        "el": 175,
        "<br/><br/>": 176,
        "un": 177,
        "ith": 178,
        "ap": 179,
        "oo": 180,
        "ld": 181,
        "ke": 182,
        "are": 183,
        "ec": 184,
        "fil": 185,
        "you": 186,
        "film": 187,
        ".<br/><br/>": 188,
        "movie": 189,
        "et": 190,
        "ag": 191,
        "with": 192,
        "ri": 193,
        "but": 194,
        "ir": 195,
        "em": 196,
        "ro": 197,
        "all": 198,
        "su": 199,
        ".the": 200,
        "one": 201,
        "'t": 202,
        "sto": 203,
        "if": 204,
        "pl": 205,
        "ally": 206,
        "ther": 207,
        "sc": 208,
        "ould": 209,
        "out": 210,
        "so": 211,
        "..": 212,
        "ha": 213,
        "po": 214,
        "ul": 215,
        "ome": 216,
        "ofthe": 217,
        "not": 218,
        "act": 219,
        "no": 220,
        "ce": 221,
        "ere": 222,
        "ur": 223,
        "est": 224,
        "ust": 225,
        "thing": 226,
        "ever": 227,
        ",and": 228,
        "ill": 229,
        "ma": 230,
        "ry": 231,
        "us": 232,
        "ex": 233,
        "he": 234,
        "inthe": 235,
        "tof": 236,
        "end": 237,
        "any": 238,
        "fr": 239,
        "de": 240,
        "ess": 241,
        "ght": 242,
        "com": 243,
        ",the": 244,
        "op": 245,
        "ven": 246,
        "ol": 247,
        "ire": 248,
        "by": 249,
        "au": 250,
        "wor": 251,
        "his": 252,
        "ant": 253,
        "ain": 254,
        "ew": 255,
        "ood": 256,
        "af": 257,
        "ast": 258,
        "ig": 259,
        "pe": 260,
        "just": 261,
        "like": 262,
        "con": 263,
        "up": 264,
        "do": 265,
        "they": 266,
        "some": 267,
        ",but": 268,
        "tor": 269,
        "her": 270,
        "there": 271,
        "ist": 272,
        "aw": 273,
        "n't": 274,
        "have": 275,
        "oun": 276,
        "who": 277,
        "from": 278,
        "ers": 279,
        "ous": 280,
        "ack": 281,
        "art": 282,
        "qu": 283,
        "get": 284,
        "go": 285,
        "ell": 286,
        "pre": 287,
        "ind": 288,
        "char": 289,
        "pro": 290,
        "atch": 291,
        "lo": 292,
        "what": 293,
        "ough": 294,
        "me": 295,
        "sp": 296,
        "king": 297,
        "man": 298,
        "about": 299,
        "it's": 300,
        "tr": 301,
        "bo": 302,
        "thismovie": 303,
        "ation": 304,
        "tim": 305,
        "ard": 306,
        "s.": 307,
        "ate": 308,
        "my": 309,
        "edto": 310,
        "ect": 311,
        "other": 312,
        "per": 313,
        "acter": 314,
        "character": 315,
        "watch": 316,
        "them": 317,
        "would": 318,
        "ich": 319,
        "we": 320,
        "ves": 321,
        "s,": 322,
        "um": 323,
        "ne": 324,
        "ive": 325,
        "int": 326,
        "now": 327,
        "bad": 328,
        "pt": 329,
        "ss": 330,
        "when": 331,
        "even": 332,
        "bl": 333,
        "ak": 334,
        "more": 335,
        "ook": 336,
        "der": 337,
        "ong": 338,
        "ble": 339,
        "ity": 340,
        "ound": 341,
        "how": 342,
        "has": 343,
        "way": 344,
        "ure": 345,
        "very": 346,
        "bec": 347,
        "gr": 348,
        "ore": 349,
        "able": 350,
        "te": 351,
        "ge": 352,
        "uc": 353,
        "jo": 354,
        "di": 355,
        "tha": 356,
        "i'": 357,
        "which": 358,
        "gu": 359,
        "fe": 360,
        "ish": 361,
        "than": 362,
        "ight": 363,
        "our": 364,
        "ton": 365,
        "itt": 366,
        "sof": 367,
        "uch": 368,
        "see": 369,
        "tothe": 370,
        "over": 371,
        "ple": 372,
        "only": 373,
        "good": 374,
        "ep": 375,
        "ful": 376,
        "on't": 377,
        "sel": 378,
        "bet": 379,
        "thisfilm": 380,
        "...": 381,
        "ick": 382,
        "own": 383,
        "e.": 384,
        "can": 385,
        "sand": 386,
        "had": 387,
        "ud": 388,
        "ause": 389,
        "ment": 390,
        "off": 391,
        "then": 392,
        "ies": 393,
        "been": 394,
        "thef": 395,
        "show": 396,
        "wr": 397,
        "ear": 398,
        "scen": 399,
        "ef": 400,
        "irec": 401,
        "itwas": 402,
        "cr": 403,
        "ink": 404,
        "story": 405,
        "movies": 406,
        "pr": 407,
        "thr": 408,
        "ade": 409,
        "because": 410,
        "ingto": 411,
        "ah": 412,
        "really": 413,
        "ame": 414,
        "reat": 415,
        "sin": 416,
        "app": 417,
        "most": 418,
        "ial": 419,
        "cl": 420,
        "make": 421,
        "tion": 422,
        "ty": 423,
        "thisis": 424,
        "som": 425,
        "thes": 426,
        "know": 427,
        "ople": 428,
        "ine": 429,
        "play": 430,
        "ence": 431,
        "av": 432,
        "ber": 433,
        "people": 434,
        "ach": 435,
        "ass": 436,
        "she": 437,
        "does": 438,
        "dis": 439,
        "every": 440,
        "itis": 441,
        "its": 442,
        "ingthe": 443,
        "direc": 444,
        "after": 445,
        "unn": 446,
        "ide": 447,
        "did": 448,
        "well": 449,
        "inter": 450,
        "tw": 451,
        "ite": 452,
        "thec": 453,
        "were": 454,
        "acting": 455,
        "him": 456,
        "self": 457,
        "inal": 458,
        "ifyou": 459,
        "edby": 460,
        "plot": 461,
        "look": 462,
        "tobe": 463,
        "age": 464,
        "low": 465,
        "seem": 466,
        "kes": 467,
        "ang": 468,
        "irst": 469,
        "time": 470,
        "ash": 471,
        "point": 472,
        "ting": 473,
        "actor": 474,
        "ath": 475,
        "andthe": 476,
        "could": 477,
        "will": 478,
        "where": 479,
        "min": 480,
        "your": 481,
        "say": 482,
        "kill": 483,
        "ice": 484,
        "why": 485,
        "fore": 486,
        "old": 487,
        "ical": 488,
        "less": 489,
        "ican": 490,
        "ary": 491,
        "dr": 492,
        "ake": 493,
        "their": 494,
        "back": 495,
        "thefilm": 496,
        "much": 497,
        ".i": 498,
        "ev": 499,
        "better": 500,
        "les": 501,
        "ious": 502,
        "ck": 503,
        "att": 504,
        "cre": 505,
        "son": 506,
        "des": 507,
        "into": 508,
        "bu": 509,
        "ave": 510,
        "por": 511,
        "want": 512,
        "ren": 513,
        "ated": 514,
        "view": 515,
        "str": 516,
        "sare": 517,
        "ser": 518,
        "igh": 519,
        "urn": 520,
        "made": 521,
        "work": 522,
        "ving": 523,
        "!!": 524,
        "fl": 525,
        "alo": 526,
        "though": 527,
        "through": 528,
        "theb": 529,
        "hor": 530,
        "part": 531,
        "being": 532,
        "ually": 533,
        "too": 534,
        "ip": 535,
        "augh": 536,
        "ace": 537,
        "themovie": 538,
        "fa": 539,
        "don't": 540,
        "ian": 541,
        "iz": 542,
        "--": 543,
        "tain": 544,
        "sup": 545,
        "tal": 546,
        "gi": 547,
        "ved": 548,
        "dy": 549,
        "also": 550,
        "ph": 551,
        "ater": 552,
        "ens": 553,
        "stof": 554,
        "onthe": 555,
        "duc": 556,
        ".there": 557,
        "fect": 558,
        "amer": 559,
        "whil": 560,
        "mis": 561,
        "unny": 562,
        "ason": 563,
        "co": 564,
        "ance": 565,
        "real": 566,
        "forthe": 567,
        "ted": 568,
        "pos": 569,
        "it.": 570,
        "here": 571,
        "irl": 572,
        "esto": 573,
        "wer": 574,
        "ll": 575,
        "ought": 576,
        "nothing": 577,
        "atthe": 578,
        "interest": 579,
        "es,": 580,
        "may": 581,
        "withthe": 582,
        "ing.": 583,
        "iwas": 584,
        "ittle": 585,
        "ror": 586,
        "year": 587,
        "i'm": 588,
        "something": 589,
        "ase": 590,
        "orig": 591,
        "beli": 592,
        "under": 593,
        "red": 594,
        "fer": 595,
        "ob": 596,
        "ste": 597,
        "think": 598,
        "again": 599,
        "ably": 600,
        "10": 601,
        "ing,": 602,
        "az": 603,
        "outof": 604,
        "inc": 605,
        "ark": 606,
        "ript": 607,
        "funny": 608,
        "should": 609,
        "read": 610,
        "y,": 611,
        "tho": 612,
        "anc": 613,
        "ily": 614,
        "actually": 615,
        "oneofthe": 616,
        "19": 617,
        "vel": 618,
        ".but": 619,
        "director": 620,
        "original": 621,
        "riend": 622,
        "ense": 623,
        ".<br/><br/>the": 624,
        "let": 625,
        "ict": 626,
        "girl": 627,
        "guy": 628,
        "never": 629,
        "day": 630,
        "down": 631,
        "minut": 632,
        "gen": 633,
        "ise": 634,
        "scre": 635,
        "sex": 636,
        "ild": 637,
        "such": 638,
        "ie": 639,
        "fort": 640,
        "car": 641,
        "pret": 642,
        "sthat": 643,
        "another": 644,
        "life": 645,
        "pect": 646,
        ").": 647,
        "ato": 648,
        "before": 649,
        "ue": 650,
        "fin": 651,
        "star": 652,
        "enc": 653,
        "produc": 654,
        "got": 655,
        "first": 656,
        "rible": 657,
        "**": 658,
        "ed.": 659,
        "bor": 660,
        "sur": 661,
        "ans": 662,
        "ating": 663,
        "set": 664,
        "es.": 665,
        "stand": 666,
        "try": 667,
        "great": 668,
        "'re": 669,
        "form": 670,
        "watching": 671,
        "script": 672,
        "ext": 673,
        "worst": 674,
        "thave": 675,
        "friend": 676,
        "oc": 677,
        "sor": 678,
        "icul": 679,
        "writ": 680,
        "gl": 681,
        "ed,": 682,
        "esc": 683,
        "top": 684,
        "fromthe": 685,
        "appe": 686,
        "makes": 687,
        "ins": 688,
        "aid": 689,
        "action": 690,
        "par": 691,
        "od": 692,
        "ly,": 693,
        "comm": 694,
        "sthe": 695,
        "havebeen": 696,
        "ingand": 697,
        "war": 698,
        "still": 699,
        "many": 700,
        "ool": 701,
        "scenes": 702,
        ".it": 703,
        "ime": 704,
        "feel": 705,
        "wom": 706,
        "scene": 707,
        "right": 708,
        "that's": 709,
        "amp": 710,
        "ann": 711,
        "agood": 712,
        "kid": 713,
        "anything": 714,
        "bas": 715,
        "thel": 716,
        "che": 717,
        "ug": 718,
        "sy": 719,
        "sl": 720,
        "ra": 721,
        "seen": 722,
        "inv": 723,
        "cont": 724,
        "ond": 725,
        "een": 726,
        "ual": 727,
        "those": 728,
        "ically": 729,
        "least": 730,
        "kind": 731,
        "new": 732,
        "bes": 733,
        "enough": 734,
        "erson": 735,
        "however": 736,
        "vers": 737,
        "around": 738,
        "allthe": 739,
        "imp": 740,
        "two": 741,
        "wood": 742,
        "poor": 743,
        "mus": 744,
        "turn": 745,
        "edin": 746,
        ",\"": 747,
        "doesn't": 748,
        "ub": 749,
        ".and": 750,
        "away": 751,
        "dec": 752,
        "while": 753,
        "tosee": 754,
        "mar": 755,
        "pretty": 756,
        "amovie": 757,
        "cept": 758,
        "appen": 759,
        "effect": 760,
        "omb": 761,
        "ster": 762,
        "characters": 763,
        "ail": 764,
        "y.": 765,
        "edit": 766,
        "plete": 767,
        "ofc": 768,
        "start": 769,
        "head": 770,
        "upid": 771,
        "put": 772,
        "sol": 773,
        "edand": 774,
        "vious": 775,
        "asthe": 776,
        "alf": 777,
        "making": 778,
        "give": 779,
        "),": 780,
        "akes": 781,
        "thatthe": 782,
        "isthe": 783,
        "lear": 784,
        "illi": 785,
        "love": 786,
        "00": 787,
        "don": 788,
        "acc": 789,
        "expl": 790,
        "slike": 791,
        "lin": 792,
        "use": 793,
        "laugh": 794,
        "ible": 795,
        "ff": 796,
        ".\"": 797,
        "expect": 798,
        "minutes": 799,
        "care": 800,
        "mem": 801,
        "cast": 802,
        "thisone": 803,
        "joy": 804,
        ",it": 805,
        "empt": 806,
        "aph": 807,
        "comed": 808,
        "ign": 809,
        "ree": 810,
        "ither": 811,
        "oot": 812,
        "afew": 813,
        "light": 814,
        ".it's": 815,
        "sure": 816,
        "idon't": 817,
        "aren": 818,
        "add": 819,
        "edo": 820,
        "yand": 821,
        "world": 822,
        "vis": 823,
        "awful": 824,
        "sit": 825,
        "edon": 826,
        "screen": 827,
        "inn": 828,
        "bar": 829,
        ".they": 830,
        ",as": 831,
        "fam": 832,
        "sm": 833,
        "lead": 834,
        "poss": 835,
        "sid": 836,
        "stead": 837,
        "mind": 838,
        ",which": 839,
        "main": 840,
        "ger": 841,
        "enter": 842,
        "eve": 843,
        "esp": 844,
        "forman": 845,
        "best": 846,
        "audi": 847,
        ",there": 848,
        "bud": 849,
        "hand": 850,
        "hel": 851,
        "body": 852,
        "tory": 853,
        "thereis": 854,
        ",i": 855,
        "ouse": 856,
        "led": 857,
        "thatis": 858,
        "ward": 859,
        "sub": 860,
        "ute": 861,
        "atleast": 862,
        "whole": 863,
        "come": 864,
        "uck": 865,
        "loo": 866,
        "tri": 867,
        "almost": 868,
        "ately": 869,
        "thismovieis": 870,
        "sch": 871,
        "pi": 872,
        "stupid": 873,
        "atall": 874,
        "comp": 875,
        "beg": 876,
        "press": 877,
        "ress": 878,
        "mad": 879,
        "performan": 880,
        "ithink": 881,
        "far": 882,
        "comes": 883,
        "prob": 884,
        "long": 885,
        "horror": 886,
        "hard": 887,
        "worth": 888,
        "air": 889,
        "ten": 890,
        "cer": 891,
        "thiswas": 892,
        "oney": 893,
        "inem": 894,
        "hop": 895,
        "ok": 896,
        "instead": 897,
        "s\"": 898,
        "dialo": 899,
        "onder": 900,
        "without": 901,
        "suppos": 902,
        "enjoy": 903,
        "maybe": 904,
        ",they": 905,
        "ially": 906,
        "films": 907,
        "take": 908,
        "little": 909,
        "val": 910,
        "find": 911,
        "call": 912,
        "didn't": 913,
        "whow": 914,
        "probably": 915,
        "appoint": 916,
        ",you": 917,
        "high": 918,
        "ib": 919,
        "appear": 920,
        "ese": 921,
        "thet": 922,
        "big": 923,
        "ature": 924,
        "ult": 925,
        "land": 926,
        "inthis": 927,
        "ru": 928,
        "men": 929,
        "ness": 930,
        "chr": 931,
        "mon": 932,
        "hour": 933,
        "ank": 934,
        "ane": 935,
        "og": 936,
        "wal": 937,
        "anim": 938,
        "betwe": 939,
        "proble": 940,
        "line": 941,
        "shot": 942,
        "reason": 943,
        "boy": 944,
        "cond": 945,
        "spec": 946,
        "s.<br/><br/>": 947,
        "pol": 948,
        "sing": 949,
        "sent": 950,
        "oment": 951,
        "afilm": 952,
        "ort": 953,
        "exc": 954,
        "eof": 955,
        ",is": 956,
        "esh": 957,
        "towatch": 958,
        "ism": 959,
        "edthe": 960,
        "fortun": 961,
        "sequ": 962,
        "youn": 963,
        "....": 964,
        "graph": 965,
        "vide": 966,
        "complete": 967,
        "interesting": 968,
        "unt": 969,
        "os": 970,
        "ending": 971,
        "iffer": 972,
        "person": 973,
        "veseen": 974,
        "esand": 975,
        "arent": 976,
        "ention": 977,
        "else": 978,
        "n'": 979,
        "oh": 980,
        "ourse": 981,
        "ret": 982,
        "lik": 983,
        "ci": 984,
        "er,": 985,
        "hol": 986,
        "lef": 987,
        "attempt": 988,
        "cor": 989,
        "thefirst": 990,
        "between": 991,
        "kindof": 992,
        "ihave": 993,
        "s(": 994,
        "anyone": 995,
        "idid": 996,
        "he's": 997,
        ")and": 998,
        "believe": 999,
        "imply": 1000,
        "ask": 1001,
        "waste": 1002,
        "atter": 1003,
        "looking": 1004,
        "aking": 1005,
        "acom": 1006,
        "lack": 1007,
        "peri": 1008,
        "icould": 1009,
        "child": 1010,
        "port": 1011,
        "along": 1012,
        "mor": 1013,
        ",or": 1014,
        "col": 1015,
        "edi": 1016,
        "ife": 1017,
        "ject": 1018,
        "heis": 1019,
        "fact": 1020,
        "ition": 1021,
        "american": 1022,
        "worse": 1023,
        "budget": 1024,
        "keep": 1025,
        "pris": 1026,
        "ull": 1027,
        ",it's": 1028,
        "going": 1029,
        "mak": 1030,
        "softhe": 1031,
        "hu": 1032,
        "tomake": 1033,
        "version": 1034,
        "mostof": 1035,
        "joh": 1036,
        "bre": 1037,
        "fail": 1038,
        ",andthe": 1039,
        "rid": 1040,
        "ler": 1041,
        "avery": 1042,
        "idea": 1043,
        "iss": 1044,
        "ons": 1045,
        "someone": 1046,
        "second": 1047,
        "mer": 1048,
        "black": 1049,
        "thereare": 1050,
        "wouldbe": 1051,
        "ative": 1052,
        "bythe": 1053,
        "word": 1054,
        "piec": 1055,
        "umb": 1056,
        "itch": 1057,
        "goingto": 1058,
        "haven": 1059,
        "ality": 1060,
        "sul": 1061,
        "zomb": 1062,
        "isn't": 1063,
        "aut": 1064,
        "den": 1065,
        "ner": 1066,
        "gets": 1067,
        "fun": 1068,
        "cent": 1069,
        "ying": 1070,
        "alotof": 1071,
        "everything": 1072,
        "john": 1073,
        "arly": 1074,
        "fol": 1075,
        "night": 1076,
        "need": 1077,
        "fall": 1078,
        "tot": 1079,
        "iso": 1080,
        "blood": 1081,
        "music": 1082,
        "imag": 1083,
        "ared": 1084,
        "a\"": 1085,
        ",in": 1086,
        "edtobe": 1087,
        "ene": 1088,
        "stu": 1089,
        "tom": 1090,
        "movie.": 1091,
        "gether": 1092,
        "there's": 1093,
        "anno": 1094,
        "problem": 1095,
        "production": 1096,
        "sound": 1097,
        "oneof": 1098,
        "leas": 1099,
        "lec": 1100,
        "sher": 1101,
        "wrong": 1102,
        "hewas": 1103,
        "both": 1104,
        "ale": 1105,
        "sat": 1106,
        "goes": 1107,
        "obvious": 1108,
        "actors": 1109,
        "istic": 1110,
        "eck": 1111,
        "absol": 1112
    },
    "merges": [
        [
            "t",
            "h"
        ],
        [
            "i",
            "n"
        ],
        [
            "th",
            "e"
        ],
        [
            "a",
            "n"
        ],
        [
            "e",
            "r"
        ],
        [
            "i",
            "s"
        ],
        [
            "r",
            "e"
        ],
        [
            "t",
            "o"
        ],
        [
            "o",
            "n"
        ],
        [
            "e",
            "n"
        ],
        [
            "a",
            "t"
        ],
        [
            "e",
            "s"
        ],
        [
            "a",
            "s"
        ],
        [
            "in",
            "g"
        ],
        [
            "o",
            "u"
        ],
        [
            "a",
            "l"
        ],
        [
            "i",
            "t"
        ],
        [
            "o",
            "r"
        ],
        [
            "an",
            "d"
        ],
        [
            "e",
            "d"
        ],
        [
            "a",
            "r"
        ],
        [
            "o",
            "f"
        ],
        [
            "l",
            "y"
        ],
        [
            "b",
            "r"
        ],
        [
            "c",
            "h"
        ],
        [
            "i",
            "l"
        ],
        [
            "o",
            "m"
        ],
        [
            "s",
            "t"
        ],
        [
            "l",
            "e"
        ],
        [
            "a",
            "c"
        ],
        [
            "<",
            "br"
        ],
        [
            "<br",
            "/"
        ],
        [
            "<br/",
            ">"
        ],
        [
            "s",
            "e"
        ],
        [
            "w",
            "h"
        ],
        [
            "m",
            "o"
        ],
        [
            "b",
            "e"
        ],
        [
            "i",
            "c"
        ],
        [
            "a",
            "d"
        ],
        [
            "th",
            "is"
        ],
        [
            "v",
            "i"
        ],
        [
            "o",
            "w"
        ],
        [
            "th",
            "at"
        ],
        [
            "o",
            "t"
        ],
        [
            "v",
            "e"
        ],
        [
            "v",
            "er"
        ],
        [
            "u",
            "t"
        ],
        [
            "l",
            "i"
        ],
        [
            "a",
            "m"
        ],
        [
            "t",
            "er"
        ],
        [
            "s",
            "h"
        ],
        [
            "f",
            "or"
        ],
        [
            "a",
            "b"
        ],
        [
            "i",
            "d"
        ],
        [
            "w",
            "as"
        ],
        [
            "i",
            "m"
        ],
        [
            "g",
            "h"
        ],
        [
            "mo",
            "vi"
        ],
        [
            "'",
            "s"
        ],
        [
            "a",
            "y"
        ],
        [
            "en",
            "t"
        ],
        [
            "i",
            "on"
        ],
        [
            "e",
            "l"
        ],
        [
            "<br/>",
            "<br/>"
        ],
        [
            "u",
            "n"
        ],
        [
            "i",
            "th"
        ],
        [
            "a",
            "p"
        ],
        [
            "o",
            "o"
        ],
        [
            "l",
            "d"
        ],
        [
            "k",
            "e"
        ],
        [
            "a",
            "re"
        ],
        [
            "e",
            "c"
        ],
        [
            "f",
            "il"
        ],
        [
            "y",
            "ou"
        ],
        [
            "fil",
            "m"
        ],
        [
            ".",
            "<br/><br/>"
        ],
        [
            "movi",
            "e"
        ],
        [
            "e",
            "t"
        ],
        [
            "a",
            "g"
        ],
        [
            "w",
            "ith"
        ],
        [
            "r",
            "i"
        ],
        [
            "b",
            "ut"
        ],
        [
            "i",
            "r"
        ],
        [
            "e",
            "m"
        ],
        [
            "r",
            "o"
        ],
        [
            "al",
            "l"
        ],
        [
            "s",
            "u"
        ],
        [
            ".",
            "the"
        ],
        [
            "on",
            "e"
        ],
        [
            "'",
            "t"
        ],
        [
            "s",
            "to"
        ],
        [
            "i",
            "f"
        ],
        [
            "p",
            "l"
        ],
        [
            "al",
            "ly"
        ],
        [
            "the",
            "r"
        ],
        [
            "s",
            "c"
        ],
        [
            "ou",
            "ld"
        ],
        [
            "ou",
            "t"
        ],
        [
            "s",
            "o"
        ],
        [
            ".",
            "."
        ],
        [
            "h",
            "a"
        ],
        [
            "p",
            "o"
        ],
        [
            "u",
            "l"
        ],
        [
            "om",
            "e"
        ],
        [
            "of",
            "the"
        ],
        [
            "n",
            "ot"
        ],
        [
            "ac",
            "t"
        ],
        [
            "n",
            "o"
        ],
        [
            "c",
            "e"
        ],
        [
            "er",
            "e"
        ],
        [
            "u",
            "r"
        ],
        [
            "es",
            "t"
        ],
        [
            "u",
            "st"
        ],
        [
            "th",
            "ing"
        ],
        [
            "e",
            "ver"
        ],
        [
            ",",
            "and"
        ],
        [
            "il",
            "l"
        ],
        [
            "m",
            "a"
        ],
        [
            "r",
            "y"
        ],
        [
            "u",
            "s"
        ],
        [
            "e",
            "x"
        ],
        [
            "h",
            "e"
        ],
        [
            "in",
            "the"
        ],
        [
            "to",
            "f"
        ],
        [
            "en",
            "d"
        ],
        [
            "an",
            "y"
        ],
        [
            "f",
            "r"
        ],
        [
            "d",
            "e"
        ],
        [
            "es",
            "s"
        ],
        [
            "gh",
            "t"
        ],
        [
            "c",
            "om"
        ],
        [
            ",",
            "the"
        ],
        [
            "o",
            "p"
        ],
        [
            "v",
            "en"
        ],
        [
            "o",
            "l"
        ],
        [
            "i",
            "re"
        ],
        [
            "b",
            "y"
        ],
        [
            "a",
            "u"
        ],
        [
            "w",
            "or"
        ],
        [
            "h",
            "is"
        ],
        [
            "an",
            "t"
        ],
        [
            "a",
            "in"
        ],
        [
            "e",
            "w"
        ],
        [
            "oo",
            "d"
        ],
        [
            "a",
            "f"
        ],
        [
            "as",
            "t"
        ],
        [
            "i",
            "g"
        ],
        [
            "p",
            "e"
        ],
        [
            "j",
            "ust"
        ],
        [
            "li",
            "ke"
        ],
        [
            "c",
            "on"
        ],
        [
            "u",
            "p"
        ],
        [
            "d",
            "o"
        ],
        [
            "the",
            "y"
        ],
        [
            "s",
            "ome"
        ],
        [
            ",",
            "but"
        ],
        [
            "to",
            "r"
        ],
        [
            "h",
            "er"
        ],
        [
            "the",
            "re"
        ],
        [
            "is",
            "t"
        ],
        [
            "a",
            "w"
        ],
        [
            "n",
            "'t"
        ],
        [
            "ha",
            "ve"
        ],
        [
            "ou",
            "n"
        ],
        [
            "wh",
            "o"
        ],
        [
            "fr",
            "om"
        ],
        [
            "er",
            "s"
        ],
        [
            "ou",
            "s"
        ],
        [
            "ac",
            "k"
        ],
        [
            "ar",
            "t"
        ],
        [
            "q",
            "u"
        ],
        [
            "g",
            "et"
        ],
        [
            "g",
            "o"
        ],
        [
            "el",
            "l"
        ],
        [
            "p",
            "re"
        ],
        [
            "in",
            "d"
        ],
        [
            "ch",
            "ar"
        ],
        [
            "p",
            "ro"
        ],
        [
            "at",
            "ch"
        ],
        [
            "l",
            "o"
        ],
        [
            "wh",
            "at"
        ],
        [
            "ou",
            "gh"
        ],
        [
            "m",
            "e"
        ],
        [
            "s",
            "p"
        ],
        [
            "k",
            "ing"
        ],
        [
            "m",
            "an"
        ],
        [
            "ab",
            "out"
        ],
        [
            "it",
            "'s"
        ],
        [
            "t",
            "r"
        ],
        [
            "b",
            "o"
        ],
        [
            "this",
            "movie"
        ],
        [
            "at",
            "ion"
        ],
        [
            "t",
            "im"
        ],
        [
            "ar",
            "d"
        ],
        [
            "s",
            "."
        ],
        [
            "at",
            "e"
        ],
        [
            "m",
            "y"
        ],
        [
            "ed",
            "to"
        ],
        [
            "ec",
            "t"
        ],
        [
            "o",
            "ther"
        ],
        [
            "p",
            "er"
        ],
        [
            "ac",
            "ter"
        ],
        [
            "char",
            "acter"
        ],
        [
            "w",
            "atch"
        ],
        [
            "the",
            "m"
        ],
        [
            "w",
            "ould"
        ],
        [
            "i",
            "ch"
        ],
        [
            "w",
            "e"
        ],
        [
            "v",
            "es"
        ],
        [
            "s",
            ","
        ],
        [
            "u",
            "m"
        ],
        [
            "n",
            "e"
        ],
        [
            "i",
            "ve"
        ],
        [
            "in",
            "t"
        ],
        [
            "n",
            "ow"
        ],
        [
            "b",
            "ad"
        ],
        [
            "p",
            "t"
        ],
        [
            "s",
            "s"
        ],
        [
            "wh",
            "en"
        ],
        [
            "e",
            "ven"
        ],
        [
            "b",
            "l"
        ],
        [
            "a",
            "k"
        ],
        [
            "mo",
            "re"
        ],
        [
            "oo",
            "k"
        ],
        [
            "d",
            "er"
        ],
        [
            "on",
            "g"
        ],
        [
            "b",
            "le"
        ],
        [
            "it",
            "y"
        ],
        [
            "oun",
            "d"
        ],
        [
            "h",
            "ow"
        ],
        [
            "h",
            "as"
        ],
        [
            "w",
            "ay"
        ],
        [
            "u",
            "re"
        ],
        [
            "ver",
            "y"
        ],
        [
            "be",
            "c"
        ],
        [
            "g",
            "r"
        ],
        [
            "o",
            "re"
        ],
        [
            "ab",
            "le"
        ],
        [
            "t",
            "e"
        ],
        [
            "g",
            "e"
        ],
        [
            "u",
            "c"
        ],
        [
            "j",
            "o"
        ],
        [
            "d",
            "i"
        ],
        [
            "th",
            "a"
        ],
        [
            "i",
            "'"
        ],
        [
            "wh",
            "ich"
        ],
        [
            "g",
            "u"
        ],
        [
            "f",
            "e"
        ],
        [
            "is",
            "h"
        ],
        [
            "th",
            "an"
        ],
        [
            "i",
            "ght"
        ],
        [
            "ou",
            "r"
        ],
        [
            "to",
            "n"
        ],
        [
            "it",
            "t"
        ],
        [
            "s",
            "of"
        ],
        [
            "u",
            "ch"
        ],
        [
            "se",
            "e"
        ],
        [
            "to",
            "the"
        ],
        [
            "o",
            "ver"
        ],
        [
            "p",
            "le"
        ],
        [
            "on",
            "ly"
        ],
        [
            "g",
            "ood"
        ],
        [
            "e",
            "p"
        ],
        [
            "f",
            "ul"
        ],
        [
            "on",
            "'t"
        ],
        [
            "se",
            "l"
        ],
        [
            "be",
            "t"
        ],
        [
            "this",
            "film"
        ],
        [
            "..",
            "."
        ],
        [
            "ic",
            "k"
        ],
        [
            "ow",
            "n"
        ],
        [
            "e",
            "."
        ],
        [
            "c",
            "an"
        ],
        [
            "s",
            "and"
        ],
        [
            "h",
            "ad"
        ],
        [
            "u",
            "d"
        ],
        [
            "au",
            "se"
        ],
        [
            "m",
            "ent"
        ],
        [
            "of",
            "f"
        ],
        [
            "the",
            "n"
        ],
        [
            "i",
            "es"
        ],
        [
            "be",
            "en"
        ],
        [
            "the",
            "f"
        ],
        [
            "sh",
            "ow"
        ],
        [
            "w",
            "r"
        ],
        [
            "e",
            "ar"
        ],
        [
            "sc",
            "en"
        ],
        [
            "e",
            "f"
        ],
        [
            "ire",
            "c"
        ],
        [
            "it",
            "was"
        ],
        [
            "c",
            "r"
        ],
        [
            "in",
            "k"
        ],
        [
            "sto",
            "ry"
        ],
        [
            "movi",
            "es"
        ],
        [
            "p",
            "r"
        ],
        [
            "th",
            "r"
        ],
        [
            "ad",
            "e"
        ],
        [
            "bec",
            "ause"
        ],
        [
            "ing",
            "to"
        ],
        [
            "a",
            "h"
        ],
        [
            "re",
            "ally"
        ],
        [
            "am",
            "e"
        ],
        [
            "re",
            "at"
        ],
        [
            "s",
            "in"
        ],
        [
            "ap",
            "p"
        ],
        [
            "mo",
            "st"
        ],
        [
            "i",
            "al"
        ],
        [
            "c",
            "l"
        ],
        [
            "ma",
            "ke"
        ],
        [
            "t",
            "ion"
        ],
        [
            "t",
            "y"
        ],
        [
            "this",
            "is"
        ],
        [
            "s",
            "om"
        ],
        [
            "the",
            "s"
        ],
        [
            "k",
            "now"
        ],
        [
            "op",
            "le"
        ],
        [
            "in",
            "e"
        ],
        [
            "pl",
            "ay"
        ],
        [
            "en",
            "ce"
        ],
        [
            "a",
            "v"
        ],
        [
            "b",
            "er"
        ],
        [
            "pe",
            "ople"
        ],
        [
            "a",
            "ch"
        ],
        [
            "as",
            "s"
        ],
        [
            "sh",
            "e"
        ],
        [
            "do",
            "es"
        ],
        [
            "d",
            "is"
        ],
        [
            "ever",
            "y"
        ],
        [
            "it",
            "is"
        ],
        [
            "it",
            "s"
        ],
        [
            "ing",
            "the"
        ],
        [
            "d",
            "irec"
        ],
        [
            "af",
            "ter"
        ],
        [
            "un",
            "n"
        ],
        [
            "id",
            "e"
        ],
        [
            "d",
            "id"
        ],
        [
            "w",
            "ell"
        ],
        [
            "in",
            "ter"
        ],
        [
            "t",
            "w"
        ],
        [
            "it",
            "e"
        ],
        [
            "the",
            "c"
        ],
        [
            "w",
            "ere"
        ],
        [
            "act",
            "ing"
        ],
        [
            "h",
            "im"
        ],
        [
            "sel",
            "f"
        ],
        [
            "in",
            "al"
        ],
        [
            "if",
            "you"
        ],
        [
            "ed",
            "by"
        ],
        [
            "pl",
            "ot"
        ],
        [
            "l",
            "ook"
        ],
        [
            "to",
            "be"
        ],
        [
            "ag",
            "e"
        ],
        [
            "l",
            "ow"
        ],
        [
            "se",
            "em"
        ],
        [
            "k",
            "es"
        ],
        [
            "an",
            "g"
        ],
        [
            "ir",
            "st"
        ],
        [
            "tim",
            "e"
        ],
        [
            "as",
            "h"
        ],
        [
            "po",
            "int"
        ],
        [
            "t",
            "ing"
        ],
        [
            "ac",
            "tor"
        ],
        [
            "a",
            "th"
        ],
        [
            "and",
            "the"
        ],
        [
            "c",
            "ould"
        ],
        [
            "w",
            "ill"
        ],
        [
            "wh",
            "ere"
        ],
        [
            "m",
            "in"
        ],
        [
            "you",
            "r"
        ],
        [
            "s",
            "ay"
        ],
        [
            "k",
            "ill"
        ],
        [
            "ic",
            "e"
        ],
        [
            "wh",
            "y"
        ],
        [
            "f",
            "ore"
        ],
        [
            "o",
            "ld"
        ],
        [
            "ic",
            "al"
        ],
        [
            "l",
            "ess"
        ],
        [
            "ic",
            "an"
        ],
        [
            "ar",
            "y"
        ],
        [
            "d",
            "r"
        ],
        [
            "a",
            "ke"
        ],
        [
            "the",
            "ir"
        ],
        [
            "b",
            "ack"
        ],
        [
            "the",
            "film"
        ],
        [
            "m",
            "uch"
        ],
        [
            ".",
            "i"
        ],
        [
            "e",
            "v"
        ],
        [
            "bet",
            "ter"
        ],
        [
            "l",
            "es"
        ],
        [
            "i",
            "ous"
        ],
        [
            "c",
            "k"
        ],
        [
            "at",
            "t"
        ],
        [
            "c",
            "re"
        ],
        [
            "s",
            "on"
        ],
        [
            "d",
            "es"
        ],
        [
            "in",
            "to"
        ],
        [
            "b",
            "u"
        ],
        [
            "a",
            "ve"
        ],
        [
            "p",
            "or"
        ],
        [
            "w",
            "ant"
        ],
        [
            "re",
            "n"
        ],
        [
            "at",
            "ed"
        ],
        [
            "vi",
            "ew"
        ],
        [
            "st",
            "r"
        ],
        [
            "s",
            "are"
        ],
        [
            "s",
            "er"
        ],
        [
            "i",
            "gh"
        ],
        [
            "ur",
            "n"
        ],
        [
            "m",
            "ade"
        ],
        [
            "wor",
            "k"
        ],
        [
            "v",
            "ing"
        ],
        [
            "!",
            "!"
        ],
        [
            "f",
            "l"
        ],
        [
            "al",
            "o"
        ],
        [
            "th",
            "ough"
        ],
        [
            "thr",
            "ough"
        ],
        [
            "the",
            "b"
        ],
        [
            "h",
            "or"
        ],
        [
            "p",
            "art"
        ],
        [
            "be",
            "ing"
        ],
        [
            "u",
            "ally"
        ],
        [
            "to",
            "o"
        ],
        [
            "i",
            "p"
        ],
        [
            "au",
            "gh"
        ],
        [
            "ac",
            "e"
        ],
        [
            "the",
            "movie"
        ],
        [
            "f",
            "a"
        ],
        [
            "d",
            "on't"
        ],
        [
            "i",
            "an"
        ],
        [
            "i",
            "z"
        ],
        [
            "-",
            "-"
        ],
        [
            "t",
            "ain"
        ],
        [
            "su",
            "p"
        ],
        [
            "t",
            "al"
        ],
        [
            "g",
            "i"
        ],
        [
            "v",
            "ed"
        ],
        [
            "d",
            "y"
        ],
        [
            "al",
            "so"
        ],
        [
            "p",
            "h"
        ],
        [
            "at",
            "er"
        ],
        [
            "en",
            "s"
        ],
        [
            "sto",
            "f"
        ],
        [
            "on",
            "the"
        ],
        [
            "d",
            "uc"
        ],
        [
            ".the",
            "re"
        ],
        [
            "f",
            "ect"
        ],
        [
            "am",
            "er"
        ],
        [
            "wh",
            "il"
        ],
        [
            "m",
            "is"
        ],
        [
            "unn",
            "y"
        ],
        [
            "as",
            "on"
        ],
        [
            "c",
            "o"
        ],
        [
            "an",
            "ce"
        ],
        [
            "re",
            "al"
        ],
        [
            "for",
            "the"
        ],
        [
            "t",
            "ed"
        ],
        [
            "po",
            "s"
        ],
        [
            "it",
            "."
        ],
        [
            "h",
            "ere"
        ],
        [
            "ir",
            "l"
        ],
        [
            "es",
            "to"
        ],
        [
            "w",
            "er"
        ],
        [
            "l",
            "l"
        ],
        [
            "ou",
            "ght"
        ],
        [
            "no",
            "thing"
        ],
        [
            "at",
            "the"
        ],
        [
            "inter",
            "est"
        ],
        [
            "es",
            ","
        ],
        [
            "m",
            "ay"
        ],
        [
            "with",
            "the"
        ],
        [
            "ing",
            "."
        ],
        [
            "i",
            "was"
        ],
        [
            "itt",
            "le"
        ],
        [
            "r",
            "or"
        ],
        [
            "y",
            "ear"
        ],
        [
            "i'",
            "m"
        ],
        [
            "some",
            "thing"
        ],
        [
            "as",
            "e"
        ],
        [
            "or",
            "ig"
        ],
        [
            "be",
            "li"
        ],
        [
            "un",
            "der"
        ],
        [
            "re",
            "d"
        ],
        [
            "f",
            "er"
        ],
        [
            "o",
            "b"
        ],
        [
            "st",
            "e"
        ],
        [
            "th",
            "ink"
        ],
        [
            "ag",
            "ain"
        ],
        [
            "ab",
            "ly"
        ],
        [
            "1",
            "0"
        ],
        [
            "ing",
            ","
        ],
        [
            "a",
            "z"
        ],
        [
            "ou",
            "tof"
        ],
        [
            "in",
            "c"
        ],
        [
            "ar",
            "k"
        ],
        [
            "ri",
            "pt"
        ],
        [
            "f",
            "unny"
        ],
        [
            "sh",
            "ould"
        ],
        [
            "re",
            "ad"
        ],
        [
            "y",
            ","
        ],
        [
            "th",
            "o"
        ],
        [
            "an",
            "c"
        ],
        [
            "i",
            "ly"
        ],
        [
            "act",
            "ually"
        ],
        [
            "one",
            "ofthe"
        ],
        [
            "1",
            "9"
        ],
        [
            "ve",
            "l"
        ],
        [
            ".",
            "but"
        ],
        [
            "direc",
            "tor"
        ],
        [
            "orig",
            "inal"
        ],
        [
            "ri",
            "end"
        ],
        [
            "en",
            "se"
        ],
        [
            ".<br/><br/>",
            "the"
        ],
        [
            "le",
            "t"
        ],
        [
            "ic",
            "t"
        ],
        [
            "g",
            "irl"
        ],
        [
            "gu",
            "y"
        ],
        [
            "n",
            "ever"
        ],
        [
            "d",
            "ay"
        ],
        [
            "d",
            "own"
        ],
        [
            "min",
            "ut"
        ],
        [
            "g",
            "en"
        ],
        [
            "is",
            "e"
        ],
        [
            "sc",
            "re"
        ],
        [
            "se",
            "x"
        ],
        [
            "il",
            "d"
        ],
        [
            "su",
            "ch"
        ],
        [
            "i",
            "e"
        ],
        [
            "for",
            "t"
        ],
        [
            "c",
            "ar"
        ],
        [
            "pre",
            "t"
        ],
        [
            "s",
            "that"
        ],
        [
            "an",
            "other"
        ],
        [
            "li",
            "fe"
        ],
        [
            "p",
            "ect"
        ],
        [
            ")",
            "."
        ],
        [
            "a",
            "to"
        ],
        [
            "be",
            "fore"
        ],
        [
            "u",
            "e"
        ],
        [
            "f",
            "in"
        ],
        [
            "st",
            "ar"
        ],
        [
            "en",
            "c"
        ],
        [
            "pro",
            "duc"
        ],
        [
            "g",
            "ot"
        ],
        [
            "f",
            "irst"
        ],
        [
            "ri",
            "ble"
        ],
        [
            "*",
            "*"
        ],
        [
            "ed",
            "."
        ],
        [
            "b",
            "or"
        ],
        [
            "su",
            "r"
        ],
        [
            "an",
            "s"
        ],
        [
            "at",
            "ing"
        ],
        [
            "se",
            "t"
        ],
        [
            "es",
            "."
        ],
        [
            "st",
            "and"
        ],
        [
            "t",
            "ry"
        ],
        [
            "g",
            "reat"
        ],
        [
            "'",
            "re"
        ],
        [
            "for",
            "m"
        ],
        [
            "watch",
            "ing"
        ],
        [
            "sc",
            "ript"
        ],
        [
            "ex",
            "t"
        ],
        [
            "wor",
            "st"
        ],
        [
            "tha",
            "ve"
        ],
        [
            "f",
            "riend"
        ],
        [
            "o",
            "c"
        ],
        [
            "s",
            "or"
        ],
        [
            "ic",
            "ul"
        ],
        [
            "wr",
            "it"
        ],
        [
            "g",
            "l"
        ],
        [
            "ed",
            ","
        ],
        [
            "es",
            "c"
        ],
        [
            "to",
            "p"
        ],
        [
            "from",
            "the"
        ],
        [
            "ap",
            "pe"
        ],
        [
            "ma",
            "kes"
        ],
        [
            "in",
            "s"
        ],
        [
            "a",
            "id"
        ],
        [
            "act",
            "ion"
        ],
        [
            "p",
            "ar"
        ],
        [
            "o",
            "d"
        ],
        [
            "ly",
            ","
        ],
        [
            "com",
            "m"
        ],
        [
            "s",
            "the"
        ],
        [
            "have",
            "been"
        ],
        [
            "ing",
            "and"
        ],
        [
            "w",
            "ar"
        ],
        [
            "st",
            "ill"
        ],
        [
            "m",
            "any"
        ],
        [
            "oo",
            "l"
        ],
        [
            "scen",
            "es"
        ],
        [
            ".",
            "it"
        ],
        [
            "im",
            "e"
        ],
        [
            "fe",
            "el"
        ],
        [
            "w",
            "om"
        ],
        [
            "scen",
            "e"
        ],
        [
            "ri",
            "ght"
        ],
        [
            "that",
            "'s"
        ],
        [
            "am",
            "p"
        ],
        [
            "an",
            "n"
        ],
        [
            "ag",
            "ood"
        ],
        [
            "k",
            "id"
        ],
        [
            "any",
            "thing"
        ],
        [
            "b",
            "as"
        ],
        [
            "the",
            "l"
        ],
        [
            "ch",
            "e"
        ],
        [
            "u",
            "g"
        ],
        [
            "s",
            "y"
        ],
        [
            "s",
            "l"
        ],
        [
            "r",
            "a"
        ],
        [
            "se",
            "en"
        ],
        [
            "in",
            "v"
        ],
        [
            "con",
            "t"
        ],
        [
            "on",
            "d"
        ],
        [
            "e",
            "en"
        ],
        [
            "u",
            "al"
        ],
        [
            "tho",
            "se"
        ],
        [
            "ic",
            "ally"
        ],
        [
            "le",
            "ast"
        ],
        [
            "k",
            "ind"
        ],
        [
            "n",
            "ew"
        ],
        [
            "b",
            "es"
        ],
        [
            "en",
            "ough"
        ],
        [
            "ers",
            "on"
        ],
        [
            "how",
            "ever"
        ],
        [
            "ver",
            "s"
        ],
        [
            "ar",
            "ound"
        ],
        [
            "all",
            "the"
        ],
        [
            "im",
            "p"
        ],
        [
            "tw",
            "o"
        ],
        [
            "w",
            "ood"
        ],
        [
            "po",
            "or"
        ],
        [
            "m",
            "us"
        ],
        [
            "t",
            "urn"
        ],
        [
            "ed",
            "in"
        ],
        [
            ",",
            "\""
        ],
        [
            "does",
            "n't"
        ],
        [
            "u",
            "b"
        ],
        [
            ".",
            "and"
        ],
        [
            "aw",
            "ay"
        ],
        [
            "d",
            "ec"
        ],
        [
            "whil",
            "e"
        ],
        [
            "to",
            "see"
        ],
        [
            "m",
            "ar"
        ],
        [
            "pret",
            "ty"
        ],
        [
            "a",
            "movie"
        ],
        [
            "ce",
            "pt"
        ],
        [
            "app",
            "en"
        ],
        [
            "ef",
            "fect"
        ],
        [
            "om",
            "b"
        ],
        [
            "st",
            "er"
        ],
        [
            "character",
            "s"
        ],
        [
            "a",
            "il"
        ],
        [
            "y",
            "."
        ],
        [
            "ed",
            "it"
        ],
        [
            "ple",
            "te"
        ],
        [
            "of",
            "c"
        ],
        [
            "st",
            "art"
        ],
        [
            "he",
            "ad"
        ],
        [
            "up",
            "id"
        ],
        [
            "p",
            "ut"
        ],
        [
            "so",
            "l"
        ],
        [
            "ed",
            "and"
        ],
        [
            "vi",
            "ous"
        ],
        [
            "as",
            "the"
        ],
        [
            "al",
            "f"
        ],
        [
            "ma",
            "king"
        ],
        [
            "g",
            "ive"
        ],
        [
            ")",
            ","
        ],
        [
            "ak",
            "es"
        ],
        [
            "that",
            "the"
        ],
        [
            "is",
            "the"
        ],
        [
            "le",
            "ar"
        ],
        [
            "il",
            "li"
        ],
        [
            "lo",
            "ve"
        ],
        [
            "0",
            "0"
        ],
        [
            "d",
            "on"
        ],
        [
            "ac",
            "c"
        ],
        [
            "ex",
            "pl"
        ],
        [
            "s",
            "like"
        ],
        [
            "l",
            "in"
        ],
        [
            "u",
            "se"
        ],
        [
            "l",
            "augh"
        ],
        [
            "i",
            "ble"
        ],
        [
            "f",
            "f"
        ],
        [
            ".",
            "\""
        ],
        [
            "ex",
            "pect"
        ],
        [
            "minut",
            "es"
        ],
        [
            "c",
            "are"
        ],
        [
            "m",
            "em"
        ],
        [
            "c",
            "ast"
        ],
        [
            "this",
            "one"
        ],
        [
            "jo",
            "y"
        ],
        [
            ",",
            "it"
        ],
        [
            "em",
            "pt"
        ],
        [
            "ap",
            "h"
        ],
        [
            "com",
            "ed"
        ],
        [
            "ig",
            "n"
        ],
        [
            "re",
            "e"
        ],
        [
            "i",
            "ther"
        ],
        [
            "o",
            "ot"
        ],
        [
            "af",
            "ew"
        ],
        [
            "li",
            "ght"
        ],
        [
            ".",
            "it's"
        ],
        [
            "su",
            "re"
        ],
        [
            "id",
            "on't"
        ],
        [
            "are",
            "n"
        ],
        [
            "ad",
            "d"
        ],
        [
            "ed",
            "o"
        ],
        [
            "y",
            "and"
        ],
        [
            "wor",
            "ld"
        ],
        [
            "v",
            "is"
        ],
        [
            "aw",
            "ful"
        ],
        [
            "s",
            "it"
        ],
        [
            "ed",
            "on"
        ],
        [
            "scre",
            "en"
        ],
        [
            "in",
            "n"
        ],
        [
            "b",
            "ar"
        ],
        [
            ".the",
            "y"
        ],
        [
            ",",
            "as"
        ],
        [
            "f",
            "am"
        ],
        [
            "s",
            "m"
        ],
        [
            "le",
            "ad"
        ],
        [
            "po",
            "ss"
        ],
        [
            "s",
            "id"
        ],
        [
            "ste",
            "ad"
        ],
        [
            "m",
            "ind"
        ],
        [
            ",",
            "which"
        ],
        [
            "ma",
            "in"
        ],
        [
            "g",
            "er"
        ],
        [
            "en",
            "ter"
        ],
        [
            "e",
            "ve"
        ],
        [
            "es",
            "p"
        ],
        [
            "for",
            "man"
        ],
        [
            "b",
            "est"
        ],
        [
            "au",
            "di"
        ],
        [
            ",the",
            "re"
        ],
        [
            "b",
            "ud"
        ],
        [
            "h",
            "and"
        ],
        [
            "h",
            "el"
        ],
        [
            "bo",
            "dy"
        ],
        [
            "to",
            "ry"
        ],
        [
            "there",
            "is"
        ],
        [
            ",",
            "i"
        ],
        [
            "ou",
            "se"
        ],
        [
            "l",
            "ed"
        ],
        [
            "that",
            "is"
        ],
        [
            "w",
            "ard"
        ],
        [
            "su",
            "b"
        ],
        [
            "ut",
            "e"
        ],
        [
            "at",
            "least"
        ],
        [
            "who",
            "le"
        ],
        [
            "c",
            "ome"
        ],
        [
            "uc",
            "k"
        ],
        [
            "l",
            "oo"
        ],
        [
            "t",
            "ri"
        ],
        [
            "al",
            "most"
        ],
        [
            "ate",
            "ly"
        ],
        [
            "thismovie",
            "is"
        ],
        [
            "s",
            "ch"
        ],
        [
            "p",
            "i"
        ],
        [
            "st",
            "upid"
        ],
        [
            "at",
            "all"
        ],
        [
            "com",
            "p"
        ],
        [
            "be",
            "g"
        ],
        [
            "pre",
            "ss"
        ],
        [
            "re",
            "ss"
        ],
        [
            "m",
            "ad"
        ],
        [
            "per",
            "forman"
        ],
        [
            "ith",
            "ink"
        ],
        [
            "f",
            "ar"
        ],
        [
            "com",
            "es"
        ],
        [
            "pro",
            "b"
        ],
        [
            "l",
            "ong"
        ],
        [
            "hor",
            "ror"
        ],
        [
            "h",
            "ard"
        ],
        [
            "wor",
            "th"
        ],
        [
            "a",
            "ir"
        ],
        [
            "t",
            "en"
        ],
        [
            "c",
            "er"
        ],
        [
            "this",
            "was"
        ],
        [
            "one",
            "y"
        ],
        [
            "in",
            "em"
        ],
        [
            "h",
            "op"
        ],
        [
            "o",
            "k"
        ],
        [
            "in",
            "stead"
        ],
        [
            "s",
            "\""
        ],
        [
            "di",
            "alo"
        ],
        [
            "on",
            "der"
        ],
        [
            "with",
            "out"
        ],
        [
            "sup",
            "pos"
        ],
        [
            "en",
            "joy"
        ],
        [
            "may",
            "be"
        ],
        [
            ",the",
            "y"
        ],
        [
            "i",
            "ally"
        ],
        [
            "film",
            "s"
        ],
        [
            "t",
            "ake"
        ],
        [
            "l",
            "ittle"
        ],
        [
            "v",
            "al"
        ],
        [
            "f",
            "ind"
        ],
        [
            "c",
            "all"
        ],
        [
            "did",
            "n't"
        ],
        [
            "wh",
            "ow"
        ],
        [
            "prob",
            "ably"
        ],
        [
            "ap",
            "point"
        ],
        [
            ",",
            "you"
        ],
        [
            "h",
            "igh"
        ],
        [
            "i",
            "b"
        ],
        [
            "appe",
            "ar"
        ],
        [
            "es",
            "e"
        ],
        [
            "the",
            "t"
        ],
        [
            "b",
            "ig"
        ],
        [
            "at",
            "ure"
        ],
        [
            "ul",
            "t"
        ],
        [
            "l",
            "and"
        ],
        [
            "in",
            "this"
        ],
        [
            "r",
            "u"
        ],
        [
            "m",
            "en"
        ],
        [
            "n",
            "ess"
        ],
        [
            "ch",
            "r"
        ],
        [
            "m",
            "on"
        ],
        [
            "h",
            "our"
        ],
        [
            "an",
            "k"
        ],
        [
            "an",
            "e"
        ],
        [
            "o",
            "g"
        ],
        [
            "w",
            "al"
        ],
        [
            "an",
            "im"
        ],
        [
            "bet",
            "we"
        ],
        [
            "pro",
            "ble"
        ],
        [
            "l",
            "ine"
        ],
        [
            "sh",
            "ot"
        ],
        [
            "re",
            "ason"
        ],
        [
            "bo",
            "y"
        ],
        [
            "con",
            "d"
        ],
        [
            "sp",
            "ec"
        ],
        [
            "s",
            ".<br/><br/>"
        ],
        [
            "po",
            "l"
        ],
        [
            "s",
            "ing"
        ],
        [
            "s",
            "ent"
        ],
        [
            "om",
            "ent"
        ],
        [
            "a",
            "film"
        ],
        [
            "or",
            "t"
        ],
        [
            "ex",
            "c"
        ],
        [
            "e",
            "of"
        ],
        [
            ",",
            "is"
        ],
        [
            "es",
            "h"
        ],
        [
            "to",
            "watch"
        ],
        [
            "is",
            "m"
        ],
        [
            "ed",
            "the"
        ],
        [
            "fort",
            "un"
        ],
        [
            "se",
            "qu"
        ],
        [
            "you",
            "n"
        ],
        [
            "..",
            ".."
        ],
        [
            "gr",
            "aph"
        ],
        [
            "vi",
            "de"
        ],
        [
            "com",
            "plete"
        ],
        [
            "interest",
            "ing"
        ],
        [
            "un",
            "t"
        ],
        [
            "o",
            "s"
        ],
        [
            "end",
            "ing"
        ],
        [
            "if",
            "fer"
        ],
        [
            "p",
            "erson"
        ],
        [
            "ves",
            "een"
        ],
        [
            "es",
            "and"
        ],
        [
            "aren",
            "t"
        ],
        [
            "ent",
            "ion"
        ],
        [
            "el",
            "se"
        ],
        [
            "n",
            "'"
        ],
        [
            "o",
            "h"
        ],
        [
            "our",
            "se"
        ],
        [
            "re",
            "t"
        ],
        [
            "li",
            "k"
        ],
        [
            "c",
            "i"
        ],
        [
            "er",
            ","
        ],
        [
            "h",
            "ol"
        ],
        [
            "le",
            "f"
        ],
        [
            "att",
            "empt"
        ],
        [
            "c",
            "or"
        ],
        [
            "thef",
            "irst"
        ],
        [
            "betwe",
            "en"
        ],
        [
            "kind",
            "of"
        ],
        [
            "i",
            "have"
        ],
        [
            "s",
            "("
        ],
        [
            "any",
            "one"
        ],
        [
            "id",
            "id"
        ],
        [
            "he",
            "'s"
        ],
        [
            ")",
            "and"
        ],
        [
            "beli",
            "eve"
        ],
        [
            "imp",
            "ly"
        ],
        [
            "as",
            "k"
        ],
        [
            "was",
            "te"
        ],
        [
            "at",
            "ter"
        ],
        [
            "loo",
            "king"
        ],
        [
            "a",
            "king"
        ],
        [
            "ac",
            "om"
        ],
        [
            "l",
            "ack"
        ],
        [
            "per",
            "i"
        ],
        [
            "ic",
            "ould"
        ],
        [
            "ch",
            "ild"
        ],
        [
            "por",
            "t"
        ],
        [
            "al",
            "ong"
        ],
        [
            "m",
            "or"
        ],
        [
            ",",
            "or"
        ],
        [
            "c",
            "ol"
        ],
        [
            "ed",
            "i"
        ],
        [
            "if",
            "e"
        ],
        [
            "j",
            "ect"
        ],
        [
            "he",
            "is"
        ],
        [
            "f",
            "act"
        ],
        [
            "it",
            "ion"
        ],
        [
            "amer",
            "ican"
        ],
        [
            "wor",
            "se"
        ],
        [
            "bud",
            "get"
        ],
        [
            "ke",
            "ep"
        ],
        [
            "pr",
            "is"
        ],
        [
            "ul",
            "l"
        ],
        [
            ",",
            "it's"
        ],
        [
            "go",
            "ing"
        ],
        [
            "ma",
            "k"
        ],
        [
            "s",
            "ofthe"
        ],
        [
            "h",
            "u"
        ],
        [
            "to",
            "make"
        ],
        [
            "vers",
            "ion"
        ],
        [
            "mo",
            "stof"
        ],
        [
            "jo",
            "h"
        ],
        [
            "b",
            "re"
        ],
        [
            "fa",
            "il"
        ],
        [
            ",and",
            "the"
        ],
        [
            "r",
            "id"
        ],
        [
            "l",
            "er"
        ],
        [
            "a",
            "very"
        ],
        [
            "ide",
            "a"
        ],
        [
            "is",
            "s"
        ],
        [
            "on",
            "s"
        ],
        [
            "some",
            "one"
        ],
        [
            "se",
            "cond"
        ],
        [
            "m",
            "er"
        ],
        [
            "bl",
            "ack"
        ],
        [
            "there",
            "are"
        ],
        [
            "would",
            "be"
        ],
        [
            "at",
            "ive"
        ],
        [
            "by",
            "the"
        ],
        [
            "wor",
            "d"
        ],
        [
            "pi",
            "ec"
        ],
        [
            "um",
            "b"
        ],
        [
            "it",
            "ch"
        ],
        [
            "go",
            "ingto"
        ],
        [
            "ha",
            "ven"
        ],
        [
            "al",
            "ity"
        ],
        [
            "su",
            "l"
        ],
        [
            "z",
            "omb"
        ],
        [
            "is",
            "n't"
        ],
        [
            "a",
            "ut"
        ],
        [
            "d",
            "en"
        ],
        [
            "n",
            "er"
        ],
        [
            "get",
            "s"
        ],
        [
            "f",
            "un"
        ],
        [
            "c",
            "ent"
        ],
        [
            "y",
            "ing"
        ],
        [
            "alo",
            "tof"
        ],
        [
            "every",
            "thing"
        ],
        [
            "joh",
            "n"
        ],
        [
            "ar",
            "ly"
        ],
        [
            "f",
            "ol"
        ],
        [
            "n",
            "ight"
        ],
        [
            "ne",
            "ed"
        ],
        [
            "f",
            "all"
        ],
        [
            "to",
            "t"
        ],
        [
            "is",
            "o"
        ],
        [
            "bl",
            "ood"
        ],
        [
            "mus",
            "ic"
        ],
        [
            "im",
            "ag"
        ],
        [
            "are",
            "d"
        ],
        [
            "a",
            "\""
        ],
        [
            ",",
            "in"
        ],
        [
            "edto",
            "be"
        ],
        [
            "en",
            "e"
        ],
        [
            "st",
            "u"
        ],
        [
            "to",
            "m"
        ],
        [
            "movie",
            "."
        ],
        [
            "ge",
            "ther"
        ],
        [
            "there",
            "'s"
        ],
        [
            "an",
            "no"
        ],
        [
            "proble",
            "m"
        ],
        [
            "produc",
            "tion"
        ],
        [
            "s",
            "ound"
        ],
        [
            "one",
            "of"
        ],
        [
            "le",
            "as"
        ],
        [
            "le",
            "c"
        ],
        [
            "sh",
            "er"
        ],
        [
            "wr",
            "ong"
        ],
        [
            "he",
            "was"
        ],
        [
            "bo",
            "th"
        ],
        [
            "al",
            "e"
        ],
        [
            "s",
            "at"
        ],
        [
            "go",
            "es"
        ],
        [
            "ob",
            "vious"
        ],
        [
            "actor",
            "s"
        ],
        [
            "ist",
            "ic"
        ],
        [
            "ec",
            "k"
        ],
        [
            "ab",
            "sol"
        ]
    ]
}